, 191296
. 161202
the 134481
and 96624
to 78652
of 73754
a 71027
that 59845
i 53405
in 51612
it 49432
you 45801
we 42022
is 41915
&apos;s 36496
this 32257
so 23494
&quot; 22852
they 21007
was 19127
-- 18933
for 18916
on 18868
are 17909
have 17288
what 17120
but 16752
with 15941
can 15309
? 14240
&apos;t 14068
about 13651
there 13588
as 13184
at 13082
be 12887
all 12554
do 11707
not 11581
one 11448
an 11006
&apos;re 10907
my 10862
people 10595
if 10202
like 10186
from 10109
or 9629
he 9516
now 9322
these 9032
just 8919
our 8569
: 8429
when 8223
because 8186
very 8179
me 7955
out 7849
how 7712
by 7706
up 7411
know 7369
them 7255
going 7191
which 6933
more 6748
think 6689
here 6679
had 6653
see 6613
your 6357
who 6330
really 6270
us 6245
ed 6236
ing 6201
their 6197
get 6133
then 6116
would 6075
were 5999
&apos;ve 5949
world 5792
re@@ 5667
time 5616
some 5607
&apos;m 5554
has 5405
way 5340
don 5304
actually 5277
into 5186
where 5090
things 4957
go 4892
will 4881
years 4852
other 4684
es 4645
no 4566
well 4541
could 4496
want 4455
make 4323
been 4284
-@@ 4250
said 4250
right 4239
she 4118
something 4066
y 3885
first 3857
two 3839
those 3792
than 3786
look 3769
c@@ 3765
in@@ 3761
his 3710
s 3697
thing 3666
little 3624
new 3603
got 3590
also 3569
much 3481
life 3454
back 3449
say 3420
work 3410
; 3382
over 3367
most 3364
s@@ 3364
only 3230
even 3196
e@@ 3177
kind 3142
take 3136
a@@ 3069
un@@ 3068
able 3047
many 3047
did 2995
need 2973
al 2947
good 2937
lot 2890
ti@@ 2855
why 2847
around 2843
down 2821
let 2815
come 2790
i@@ 2769
ted 2768
&apos;ll 2732
o@@ 2701
different 2695
use 2691
through 2678
her 2665
every 2654
day 2643
d@@ 2635
g@@ 2627
de@@ 2606
t@@ 2539
p@@ 2499
being 2488
ts 2481
same 2464
put 2457
its 2444
y@@ 2398
doing 2395
di@@ 2381
co@@ 2367
li@@ 2300
b@@ 2299
e 2288
er 2266
three 2261
con@@ 2242
called 2236
any 2207
en@@ 2196
percent 2164
ma@@ 2150
&apos;d 2141
talk 2138
made 2131
u@@ 2122
great 2093
today 2080
m 2075
after 2066
ar@@ 2059
ri@@ 2029
tell 2014
ated 1999
ds 1966
human 1959
po@@ 1949
o 1946
ly 1937
year 1930
big 1926
ers 1913
find 1906
fact 1903
se@@ 1888
another 1885
last 1874
p 1863
own 1860
change 1842
idea 1836
dis@@ 1829
didn 1825
before 1806
t 1803
went 1799
r@@ 1796
should 1796
give 1787
started 1781
thought 1773
le@@ 1767
m@@ 1763
al@@ 1761
ro@@ 1757
pro@@ 1744
an@@ 1740
ting 1730
off 1724
man 1714
v@@ 1713
ve 1701
story 1697
l@@ 1695
tions 1684
never 1683
com@@ 1681
better 1681
again 1676
course 1669
important 1667
k@@ 1658
le 1658
ch@@ 1639
show 1638
does 1631
end 1629
system 1623
problem 1622
next 1619
him 1618
lo@@ 1612
place 1612
used 1611
start 1608
might 1604
water 1604
f@@ 1603
together 1600
still 1597
part 1592
each 1590
brain 1581
ad@@ 1580
thank 1575
ate 1574
ago 1573
came 1557
technology 1551
on@@ 1548
bit 1546
d 1537
c 1525
te 1519
th@@ 1508
ation 1504
or@@ 1498
&apos; 1487
few 1483
between 1482
long 1478
ra@@ 1477
ating 1462
st@@ 1455
ous 1452
looking 1446
too 1442
point 1435
mean 1435
children 1424
ac@@ 1419
ex@@ 1414
try 1409
maybe 1403
se 1397
done 1392
pre@@ 1384
bi@@ 1380
tion 1375
ever 1374
h@@ 1370
found 1369
sort 1363
love 1360
less 1360
question 1356
el@@ 1354
ded 1354
bo@@ 1352
whole 1347
si@@ 1346
example 1341
ce 1338
sh@@ 1334
data 1333
doesn 1332
red 1331
school 1331
it@@ 1326
mi@@ 1321
understand 1320
l 1308
may 1307
light 1307
as@@ 1304
g 1302
using 1300
wanted 1291
four 1290
working 1289
at@@ 1288
am 1286
ke 1286
live 1285
w@@ 1279
pe@@ 1277
million 1276
ta@@ 1272
real 1272
ent 1268
away 1265
ct 1264
women 1253
pi@@ 1248
person 1247
trying 1247
old 1245
be@@ 1239
call 1238
ding 1234
believe 1231
everything 1226
ty 1225
money 1222
ck 1220
ic 1215
power 1215
ally 1212
always 1210
per@@ 1209
10 1205
kids 1202
ction 1201
five 1197
k 1194
est 1190
age 1190
feel 1188
vi@@ 1186
design 1175
country 1171
help 1171
sc@@ 1169
ab@@ 1169
space 1168
car@@ 1162
ni@@ 1159
par@@ 1140
second 1138
number 1138
comes 1134
times 1133
de 1132
im@@ 1129
took 1127
ary 1126
create 1124
ine 1124
thinking 1121
information 1121
n@@ 1119
b 1117
op@@ 1115
food 1114
me@@ 1114
means 1111
energy 1108
bu@@ 1104
making 1098
ks 1097
sense 1088
! 1084
future 1083
getting 1080
quite 1077
h 1077
als 1076
es@@ 1076
become 1075
city 1073
j@@ 1072
ses 1072
enough 1071
mar@@ 1067
em@@ 1063
th 1061
ves 1061
to@@ 1058
best 1052
ons 1051
small 1050
building 1049
probably 1049
science 1046
says 1045
la@@ 1041
side 1039
ability 1039
king 1036
ter 1026
play 1025
um 1024
gra@@ 1024
do@@ 1020
am@@ 1019
without 1019
mo@@ 1018
interesting 1016
left 1014
ne@@ 1011
stuff 1010
body 1008
home 1004
ant 1001
social 1001
er@@ 998
su@@ 997
ble 992
africa 992
w 992
inter@@ 991
talking 990
happened 988
ways 987
room 985
coming 983
der 981
tive 973
ist 972
men 972
ties 971
fe@@ 969
earth 968
form 965
dollars 964
pa@@ 963
tic 960
art 960
tra@@ 959
set 951
anything 950
build 949
half 949
is@@ 940
line 939
te@@ 939
ask 939
pretty 938
goes 935
ge@@ 933
x 933
while 932
no@@ 931
ar 929
cted 927
lives 925
days 922
seen 920
move 919
hi@@ 916
across 912
told 911
makes 907
simple 906
cor@@ 904
ment 903
ps 901
ok 901
ies 899
living 899
else 899
case 899
ins 895
mon@@ 894
such 893
basically 891
20 891
ver@@ 890
once 889
happen 886
saw 886
moment 884
health 881
ch 879
yet 878
countries 876
book 873
picture 872
project 871
imagine 870
des 868
bad 866
hand 866
ance 866
mind 865
sa@@ 863
okay 862
care 861
he@@ 855
problems 852
having 851
happens 850
ged 849
car 847
hard 844
ms 843
family 841
experience 835
later 832
ho@@ 832
sts 831
sure 831
z@@ 831
global 831
ci@@ 830
ors 829
asked 829
.@@ 828
for@@ 827
fi@@ 826
ones 825
ideas 825
learn 822
computer 819
high 818
ir@@ 817
oh 817
ck@@ 816
inside 815
tri@@ 815
everybody 810
young 809
business 809
six 809
ful 808
nature 808
history 806
process 806
reason 803
states 801
ely 796
planet 794
saying 793
both 791
n 790
nothing 789
over@@ 787
ws 786
within 784
almost 783
cells 781
min@@ 779
looks 778
per 777
already 774
top 771
billion 771
sing 770
child 769
whether 769
cu@@ 769
state 768
r 768
keep 768
far 766
gu@@ 766
ings 766
single 765
so@@ 763
music 760
bring 758
50 758
wrong 754
ans 751
son 749
remember 747
true 747
cancer 747
ca@@ 746
land 745
possible 745
under@@ 744
hope 742
guy 740
ter@@ 739
heard 738
beautiful 737
order 735
war 735
du@@ 734
looked 733
0s 731
under 731
often 729
ent@@ 727
zed 724
open 722
sub@@ 721
&amp; 721
matter 719
ol@@ 719
qu@@ 718
face 718
ul@@ 716
yes 716
gets 715
ha@@ 714
ity 714
ging 713
read 713
mu@@ 712
group 712
months 712
pres@@ 712
pri@@ 711
gi@@ 710
cy 710
ence 709
trans@@ 708
house 707
works 707
3@@ 704
answer 703
ze 703
someone 701
piece 700
ments 700
30 700
universe 700
public 698
united 696
video 695
amazing 694
india 694
sp@@ 693
instead 692
built 692
late 691
research 691
stories 691
taking 691
community 690
ars 690
head 690
since 688
ourselves 687
god 686
places 685
ved 684
da@@ 682
words 680
myself 680
isn 679
until 679
ving 675
sta@@ 675
her@@ 674
tu@@ 673
sometimes 672
species 670
education 670
control 665
sen@@ 665
den@@ 665
ur@@ 664
turn 663
out@@ 663
couple 662
government 662
ates 661
language 661
che@@ 661
ents 660
les 660
decided 659
... 658
internet 658
sur@@ 657
somebody 656
rather 653
d-@@ 652
led 651
ste@@ 648
heart 648
f 647
tional 646
happy 645
can@@ 645
ness 645
though 643
ge 643
middle 642
ces 642
pl@@ 641
turns 640
kinds 640
level 640
exactly 637
cre@@ 637
fo@@ 635
mother 634
night 634
mis@@ 634
ot@@ 634
ph@@ 633
man@@ 631
completely 627
wasn 626
everyone 625
stop 625
na@@ 625
run 625
rate 624
themselves 624
job 623
large 622
fa@@ 622
woman 622
sion 622
ber@@ 622
became 621
minutes 621
br@@ 621
je@@ 619
ru@@ 619
yeah 618
model 617
word 616
ined 615
itself 614
front 613
students 612
created 610
share 610
must 609
game 608
ations 608
society 607
dra@@ 607
re 607
learned 607
100 606
sti@@ 605
animals 604
table 604
company 602
act 602
cks 602
om@@ 602
et@@ 602
huge 599
wa@@ 599
name 598
systems 597
century 597
america 596
ju@@ 595
happening 595
&#91; 593
&#93; 593
4@@ 593
res@@ 592
study 592
hear 591
il@@ 590
third 590
news 590
environment 589
y-@@ 588
shows 586
friends 586
view 586
hours 585
ling 585
natural 584
guys 583
el 583
cr@@ 582
oil 582
bar@@ 581
x@@ 581
stic 580
china 580
sed 579
worked 577
ag@@ 577
moving 575
knew 575
et 573
won 572
har@@ 571
along 571
couldn 571
go@@ 568
flo@@ 567
ten@@ 566
fish 566
american 566
perhaps 565
air 564
disease 564
ger 564
col@@ 562
market 562
particular 561
figure 561
based 560
early 560
em 560
sound 560
sha@@ 559
questions 559
turned 558
self-@@ 558
against 557
sted 557
wi@@ 555
cra@@ 554
past 554
lin@@ 553
sho@@ 553
others 552
learning 551
least 550
ked 550
jo@@ 550
ters 549
cur@@ 549
area 548
lots 548
ocean 547
during 547
test 546
zing 545
known 543
gave 541
cally 541
ali@@ 540
takes 540
cell 539
us@@ 538
wing 537
war@@ 537
machine 537
finally 536
father 533
outside 532
gh@@ 530
wonderful 528
5@@ 528
um@@ 526
taken 526
cts 526
ying 526
scale 526
free 526
ture 526
tation 524
15 521
needs 521
ap@@ 520
entire 520
ga@@ 519
fl@@ 517
close 516
seven 516
des@@ 515
thousands 515
difference 514
clo@@ 514
culture 513
ics 513
ator 512
tor@@ 512
we@@ 510
au@@ 510
sk@@ 509
changed 509
powerful 509
cing 508
parts 507
e-@@ 506
pos@@ 506
population 506
whatever 505
ground 504
yourself 504
phone 501
given 500
bor@@ 500
ess 499
beginning 499
bur@@ 499
super@@ 499
stage 498
key 498
ce@@ 496
tr@@ 496
behind 494
cal 493
seeing 491
ism 490
st 490
terms 490
leave 489
ver 489
certain 489
parents 488
ches 487
ev@@ 487
grow 486
ure 486
economic 485
size 485
audience 485
walk 484
eyes 484
york 483
cost 483
ges 482
2 482
cannot 481
ari@@ 481
interested 481
easy 481
difficult 480
green 480
ry 479
rest 479
image 479
eight 478
force 477
pped 476
ia 475
media 475
amount 474
cri@@ 473
dy 472
cting 472
spend 472
pen@@ 472
center 471
tion@@ 470
began 469
fly 469
va@@ 469
local 469
id 469
ba@@ 468
ou@@ 468
gl@@ 467
20@@ 467
hu@@ 467
buy 466
gs 466
and@@ 466
u.s. 466
death 465
gone 465
wor@@ 465
full 464
common 464
paper 464
deal 463
fu@@ 462
black 461
team 461
friend 460
ser@@ 460
off@@ 459
simply 457
gr@@ 457
bri@@ 455
ously 455
7@@ 455
books 455
ned 453
week 452
ship 452
ders 452
humans 451
low 451
realized 451
needed 450
wh@@ 450
mit 450
hold 449
hands 449
fac@@ 449
ec@@ 448
cities 448
rec@@ 447
longer 447
ase 447
field 446
born 445
char@@ 444
der@@ 444
value 443
6@@ 442
u 442
fin@@ 442
dly 441
dan@@ 441
tried 441
step 440
complex 439
mor@@ 439
growth 439
forward 438
either 438
spent 438
str@@ 437
lt 436
stri@@ 436
watch 435
feet 435
surface 435
sitting 434
structure 434
incredible 434
companies 434
coun@@ 434
girl 432
pu@@ 431
dna 431
lation 430
clear 430
0,000 430
ice 429
lost 428
quickly 428
19@@ 427
tan@@ 427
national 427
ie 427
kes 427
ality 426
up@@ 424
cap@@ 424
west 423
ja@@ 423
white 422
cked 421
blue 421
wouldn 420
growing 420
ven@@ 419
felt 419
miles 418
stra@@ 418
political 418
ki@@ 418
gre@@ 417
knowledge 417
ens 417
micro@@ 417
dri@@ 416
die 416
south 416
met 416
behavior 416
nu@@ 416
sea 416
eat 415
giving 415
reality 415
pay 414
sting 414
,000 414
9@@ 414
ic@@ 413
economy 412
write 412
pt 412
3 411
ctions 411
brought 411
8 411
ma 410
cop@@ 410
8@@ 409
ys 408
weeks 408
40 407
ining 407
poor 407
animal 407
ell@@ 406
opportunity 406
fun 405
technologies 405
ats 404
scientists 404
/ 404
pur@@ 403
tur@@ 403
wrote 402
changes 402
telling 402
fast 401
els 401
anyone 401
areas 400
personal 400
bs 399
ger@@ 399
starting 399
yo@@ 398
cking 398
street 398
equ@@ 398
developed 397
cut 397
climate 397
mal@@ 396
patients 396
spi@@ 394
theory 393
bed 392
morning 392
images 392
cy@@ 391
inten@@ 391
ei@@ 391
program 389
understanding 389
mer@@ 389
fied 388
ori@@ 388
cer@@ 387
sun 387
short 387
gener@@ 386
feeling 386
squ@@ 386
4 385
gives 385
patient 385
air@@ 384
yed 384
nice 384
cho@@ 383
tical 383
bio@@ 383
average 382
ched 381
material 381
numbers 381
attention 380
mil@@ 380
speak 380
playing 380
bra@@ 379
mate 379
seems 379
produce 378
fully 378
vo@@ 378
cars 378
dro@@ 378
the@@ 377
ented 377
discovered 377
ton 376
tro@@ 376
ently 376
7 376
ning 375
cul@@ 375
tools 375
forms 375
stor@@ 375
hand@@ 374
tru@@ 374
challenge 373
ke@@ 373
non-@@ 373
por@@ 372
pping 372
lu@@ 372
literally 372
mine 371
vision 371
ban@@ 371
recently 371
changing 370
board 370
bottom 369
movement 369
millions 369
creating 369
ard 368
main 368
bl@@ 368
access 368
eg@@ 368
film 368
normal 367
ster 367
6 367
developing 366
ths 366
alone 366
individual 364
deep 364
shape 364
running 364
uses 363
12 363
gen@@ 362
1 362
died 362
law 362
modern 361
realize 361
physical 361
nobody 360
medi@@ 360
auth@@ 360
ns 359
ical 359
relationship 359
head@@ 359
sive 359
gro@@ 358
physi@@ 358
focus 357
ology 357
girls 356
eth@@ 356
deli@@ 356
cs 355
colle@@ 355
absolutely 355
pan@@ 355
web 355
bes 355
hundreds 354
compassion 354
lab 353
dar@@ 353
wish 353
und@@ 353
english 353
showed 353
designed 352
gers 352
map 352
ob@@ 352
dark 352
wall 352
development 351
swe@@ 351
blood 351
ement 351
knows 350
result 350
quality 350
product 349
cli@@ 349
anybody 348
soon 348
mer 347
solution 347
vis@@ 347
lar@@ 347
1@@ 347
medical 347
ther 347
seem 346
especially 346
innovation 346
moved 346
available 346
talked 346
save 345
incredibly 345
industry 345
haven 345
obviously 345
generation 345
vers 345
cat@@ 345
cla@@ 344
9 344
don@@ 343
fra@@ 342
connected 342
ingly 342
revolution 342
position 341
ff@@ 341
cool 341
experiment 341
prin@@ 341
north 340
tiny 340
major 340
box 340
stand 340
chinese 340
likely 340
solve 339
pe 339
tors 338
199@@ 338
materials 338
tend 338
pla@@ 337
begin 336
den 336
tics 336
bigger 335
becomes 335
far@@ 335
evolution 334
od@@ 334
security 334
support 334
wal@@ 334
issue 334
writing 333
university 333
kid 333
25 333
perfect 333
fall 333
games 333
online 332
allow 332
she@@ 332
cal@@ 331
class 331
asking 331
resources 331
meet 330
mental 329
cles 329
hour 329
wn 329
effect 329
beyond 329
situation 328
ther@@ 328
east 328
europe 328
color 328
please 328
type 328
reasons 327
aren 326
bas@@ 326
ster@@ 326
network 326
pictures 326
continu@@ 326
hor@@ 325
mass 325
lived 325
present 325
explain 325
device 325
5 324
oper@@ 324
depen@@ 324
wer 323
putting 323
ced 322
sters 322
inv@@ 321
tes 321
tells 321
all@@ 321
— 321
cation 321
dr@@ 320
action 320
fear 320
happiness 320
drive 319
impact 319
sli@@ 319
guess 319
fil@@ 319
ll@@ 319
eless 319
pac@@ 318
office 318
teachers 318
ment@@ 318
groups 318
ash@@ 317
ig@@ 317
computers 317
teach 317
digital 317
town 316
en 316
ker 316
sal@@ 316
source 316
cro@@ 316
towards 316
special 316
rules 315
star@@ 315
voice 315
gt 315
schools 315
fir@@ 314
scientific 314
lines 313
pal@@ 312
active 312
sions 312
dead 311
baby 311
vent@@ 311
tic@@ 311
worth 311
ared 311
bro@@ 311
onto 310
activity 310
suddenly 310
ences 310
similar 309
ted@@ 309
road 309
general 309
mission 309
solar 309
basic 309
os 308
issues 308
boy 308
door 308
ad 308
il 307
several 307
chance 307
cket 306
involved 306
syn@@ 306
truth 306
mic 305
projects 305
certainly 304
sounds 304
robot 304
60 303
80 303
predi@@ 303
evidence 303
sel@@ 303
indeed 303
risk 303
appe@@ 302
sil@@ 302
hundred 302
est@@ 302
ped 301
wind 301
impro@@ 301
asi@@ 301
pas@@ 300
month 300
eye 300
ls 299
mp@@ 299
ill@@ 299
gar@@ 299
break 299
message 299
fer 298
positive 298
strong 298
village 298
particularly 297
prote@@ 297
choice 297
enter@@ 297
hit 297
ching 297
formed 297
wants 296
ball 296
brea@@ 295
recor@@ 295
ature 295
minute 294
hal@@ 294
whe@@ 294
gue 294
vel@@ 294
anyway 293
sig@@ 293
list 292
talks 292
11 292
software 292
cations 292
nine 292
plants 291
speed 291
code 291
spo@@ 290
pul@@ 290
moral 290
carbon 290
wait 290
clu@@ 290
poli@@ 289
ators 289
om 289
fer@@ 289
wo@@ 289
stay 288
showing 288
matic 288
object 288
cam@@ 288
skin 287
listen 287
teacher 287
sent 286
starts 286
everywhere 286
potential 286
smart 286
college 286
tre@@ 286
democracy 286
pattern 286
uni@@ 285
interest 285
journey 285
ative 285
ust 285
high-@@ 285
exciting 285
sit 285
indi@@ 284
blo@@ 284
ber 284
notice 284
chan@@ 284
grand@@ 284
bon@@ 284
totally 284
exc@@ 284
examples 283
econom@@ 283
top@@ 283
mit@@ 283
stat@@ 283
tun@@ 283
nuclear 283
row 282
cin@@ 282
version 282
tives 282
student 282
biggest 281
ligh@@ 281
fire 281
back@@ 281
page 281
hospital 280
ner 280
grew 279
plan 279
aging 279
develop 279
lea@@ 279
cian 279
bat@@ 279
further 279
ended 278
t-@@ 278
ler 278
pick 278
measure 278
send 278
ures 278
walking 278
2@@ 278
ready 277
google 277
period 277
hiv 277
acc@@ 276
my@@ 276
products 276
esti@@ 276
add 276
ably 275
lead 275
ill 275
mes 274
among 274
dec@@ 274
posed 273
self 273
cent 273
ot 273
ye@@ 273
lose 273
peace 273
follow 273
alized 273
fri@@ 272
store 272
yp@@ 272
largest 272
cultural 272
ctive 272
reach 272
loo@@ 272
san@@ 272
bel@@ 272
somehow 271
jobs 271
watching 271
poverty 271
named 271
cies 271
creative 271
gas 271
continue 271
hop@@ 270
points 270
18@@ 270
sun@@ 270
men@@ 270
tal 270
rich 270
international 270
ases 270
cru@@ 269
500 269
extremely 269
medicine 269
eventually 268
organization 268
ini@@ 268
ing@@ 268
ran@@ 268
ner@@ 267
han@@ 267
nor@@ 267
electricity 267
z 267
ants 266
approach 266
except 266
ren@@ 266
movie 266
brains 266
foot 266
wards 266
dou@@ 266
series 265
ore 265
thre@@ 265
extraordinary 265
visual 265
success 265
cause 265
results 265
smo@@ 265
arm 265
standing 264
obser@@ 264
da 264
foot@@ 264
older 264
david 263
sing@@ 263
somewhere 263
0@@ 263
trees 263
essentially 263
regi@@ 263
ession 263
ral 263
vie@@ 263
dete@@ 263
tat@@ 263
usually 262
buildings 262
doctor 262
impossible 262
ve@@ 261
dance 261
minds 261
serious 261
electr@@ 261
med 260
mom 260
spread 259
ines 259
0-@@ 259
individuals 259
traditional 259
biology 258
tically 258
camera 258
expensive 258
ming 258
meaning 258
ele@@ 258
objects 258
sex 258
eng@@ 257
und 257
finding 257
consu@@ 257
safe 257
ward 257
tly 256
ots 256
studies 256
200 256
ered 256
african 255
wed 255
ages 255
ow@@ 255
models 255
taught 255
larger 255
mm@@ 255
ish 255
infe@@ 254
bal@@ 254
training 254
higher 254
leaders 253
tively 253
favorite 253
written 253
ght 252
above 252
goal 252
expect 252
screen 252
architecture 252
sorts 252
trust 252
crisis 252
bom@@ 252
sam@@ 251
conditions 251
wife 251
tree 251
cen@@ 251
sus@@ 251
ony 251
stars 251
dent 251
complicated 250
shot 250
production 250
site 250
beauty 250
sell 250
cate 250
allowed 250
plant 249
cover 249
crazy 249
arch@@ 249
pers 249
bacteria 248
belie@@ 248
shown 248
therefore 248
ey 247
square 247
supposed 247
truly 247
seconds 247
pieces 247
drugs 247
including 246
drug 246
income 246
treatment 246
reading 246
sou@@ 246
upon 245
fine 245
families 245
dream 245
refle@@ 245
hon@@ 245
fli@@ 245
dat@@ 245
killed 245
healthy 244
touch 244
connect 244
conver@@ 244
faces 244
fantastic 244
ide@@ 244
region 244
flu@@ 244
essi@@ 244
violence 244
communities 243
ute 243
provi@@ 243
fla@@ 243
ak@@ 243
tool 243
fight 243
rel@@ 243
ama@@ 242
meant 242
fy 242
famous 242
thousand 242
sto@@ 242
ops 241
worse 241
mechan@@ 240
himself 240
enti@@ 240
combin@@ 240
math 240
vation 240
18 240
perspective 240
faster 240
anti@@ 239
wonder@@ 239
response 239
successful 239
fundamental 239
press 239
role 239
kill 239
fre@@ 239
main@@ 238
lies 238
throughout 238
wat@@ 238
struc@@ 238
excited 238
bodies 237
neuro@@ 237
dist@@ 237
cl@@ 237
kept 237
ed@@ 237
ast 237
sky 237
person@@ 237
ta 236
alive 236
mal 236
military 236
inclu@@ 235
well-@@ 235
down@@ 235
ically 235
ash 235
zero 235
rele@@ 235
western 235
physics 235
content 235
sh 234
humanity 234
mas@@ 234
lon@@ 234
swi@@ 234
gh 234
rise 233
pain 233
choose 233
hot 233
context 233
price 232
exp@@ 232
pp@@ 232
cases 232
ton@@ 232
range 232
win 232
mag@@ 232
one-@@ 232
service 232
flow 231
cle@@ 231
bunch 231
ak 231
zation 231
although 231
neurons 231
freedom 231
resi@@ 230
bul@@ 230
eu@@ 230
earlier 230
genes 229
smaller 229
three-@@ 229
cep@@ 229
demon@@ 229
dad 229
recognize 229
ian 229
beings 229
bing 229
massive 229
fore@@ 229
conven@@ 229
s-@@ 228
familiar 228
patterns 228
machines 228
tou@@ 228
rights 228
consi@@ 227
slow 227
skills 227
power@@ 227
allows 227
policy 227
vely 226
engineering 226
thanks 226
contribu@@ 226
actual 226
central 226
hey 226
del@@ 226
sum@@ 226
song 226
aff@@ 226
anywhere 225
hy@@ 225
shor@@ 225
inst@@ 225
tain 225
strange 225
pra@@ 225
fru@@ 225
gotten 225
oc@@ 225
consider 225
ise 225
listening 225
aid 225
ries 224
ris@@ 224
ful@@ 224
record 224
after@@ 224
ll 224
unded 224
human@@ 224
treat 224
ale 223
to-@@ 223
clearly 223
costs 223
ners 223
driving 223
waste 223
liber@@ 223
progress 223
vari@@ 223
wel@@ 223
museum 223
waiting 223
greater 222
terri@@ 222
ited 222
pat@@ 222
solutions 222
americans 222
hea@@ 222
poin@@ 221
acy 221
dollar 221
tivity 221
fro@@ 221
virus 221
decisions 221
ka@@ 220
however 220
related 220
edi@@ 220
ils 220
concept 220
o-@@ 220
ach@@ 219
invented 219
rela@@ 219
clim@@ 219
dness 219
current 219
president 219
tent 219
new@@ 219
ant@@ 219
repres@@ 218
cated 218
increase 218
ods 218
nan@@ 218
critical 218
zes 218
liter@@ 218
values 218
wonder 218
connection 217
bre@@ 217
tor 217
ess@@ 217
clean 217
teaching 217
non@@ 217
extra@@ 217
surgery 217
respon@@ 217
provide 216
pull 216
diversity 216
magic 216
intelligence 216
fr@@ 216
dangerous 215
hole 215
ben@@ 215
john 215
fis@@ 215
effective 215
anymore 215
print 215
politics 215
ray 215
cians 215
robots 215
win@@ 215
fuel 215
st-@@ 214
photograph@@ 214
protect 214
cycle 214
date 214
two-@@ 214
tv 214
nur@@ 214
produ@@ 214
argu@@ 214
insi@@ 214
dog 214
exist 214
tin@@ 214
weight 213
fun@@ 213
im 213
forming 213
ands 213
conversation 213
draw 213
ear@@ 213
on-@@ 213
becoming 213
gic 213
flying 213
train 213
rule 213
quar@@ 212
cent@@ 212
greatest 212
religion 212
conference 212
understood 212
ast@@ 211
legs 211
dge 211
re-@@ 211
plastic 211
ese 211
ame 211
198@@ 210
walked 210
shu@@ 210
travel 210
zen 210
star 210
immediately 209
floor 209
environmental 209
remarkable 209
direction 209
clin@@ 209
raise 209
repor@@ 209
conc@@ 209
explor@@ 209
glass 209
forest 209
whose 209
lower 208
lations 208
artist 208
irs 208
services 208
scientist 208
tho@@ 208
subject 208
recogni@@ 208
decade 207
disappe@@ 207
weren 207
none 207
hom@@ 207
cha@@ 207
suff@@ 207
practice 207
sustainable 207
babies 207
chemical 206
docum@@ 206
land@@ 206
wers 206
specific 206
v 206
comm@@ 206
genetic 206
pun@@ 206
ft 205
qui@@ 205
slide 205
speaking 205
aware 205
website 205
stre@@ 205
forth 205
societies 205
unfortunately 204
lab@@ 204
ately 204
original 204
thi@@ 204
function 204
reach@@ 204
fol@@ 204
conclu@@ 204
television 204
la 204
ration 203
ghts 203
conser@@ 203
lights 203
divi@@ 203
dd@@ 203
complete 203
mars 203
doctors 203
creativity 203
enormous 202
private 202
alism 202
institutions 202
phones 202
forget 202
tt@@ 202
shar@@ 202
sharing 202
lands 202
vic@@ 202
feed 201
types 201
bank 201
ial 201
occu@@ 201
path 201
que 201
urban 200
ff 200
grade 200
ima@@ 200
networks 200
lin 199
markets 199
produced 199
performance 199
assu@@ 199
passion 199
hab@@ 199
loved 199
temperature 199
pol@@ 199
scri@@ 199
ets 199
shared 199
birds 199
survive 198
matically 198
thetic 198
lat@@ 198
evolved 198
following 198
histor@@ 198
commit@@ 198
70 198
ley 198
useful 198
lau@@ 198
zz@@ 198
agree 198
cold 198
sy@@ 198
ah 198
forces 198
discover 197
various 197
directly 197
stick 197
capit@@ 197
ads 197
dom@@ 197
x-@@ 197
recent 197
oni@@ 197
fund@@ 197
boys 197
90 197
played 197
sat 197
trade 197
chair 197
glo@@ 196
fron@@ 196
destro@@ 196
pit@@ 196
consciousness 196
bringing 195
career 195
summer 195
experiments 195
ven 195
unique 195
bly 195
fan@@ 195
financial 195
helped 195
some@@ 195
governments 195
ani@@ 195
mp 194
val@@ 194
mot@@ 194
mostly 194
ahead 194
cour@@ 194
conflict 194
aids 194
pain@@ 193
publi@@ 193
stance 193
london 193
psych@@ 193
near 193
essed 193
photograph 193
obvious 193
ran 193
appli@@ 193
meeting 193
cher 193
hi 193
industrial 192
final 192
track 192
scre@@ 192
cure 192
gene 192
biological 192
possibly 192
term 192
chi@@ 192
vac@@ 192
inspired 192
effects 192
surro@@ 191
pair 191
police 191
wir@@ 191
net 191
expected 191
thro@@ 191
park 190
levels 190
bought 190
arts 190
alization 190
sign 189
mes@@ 189
dest 189
actions 189
heat 189
reali@@ 189
spe@@ 189
explore 189
ancient 189
moon 189
entation 189
radi@@ 189
funny 189
shi@@ 188
tex@@ 188
push 188
dr. 188
island 188
bes@@ 188
below 188
ham@@ 188
ek 188
eli@@ 188
mel@@ 188
16 188
dig@@ 188
challenges 187
vol@@ 187
diagno@@ 187
fit 187
indian 187
ble@@ 187
decision 187
terrible 186
sor@@ 186
ky 186
bot@@ 186
uring 186
spending 186
exten@@ 186
search 186
nation 186
focused 186
classi@@ 186
workers 186
lan@@ 186
complexity 185
eating 185
era 185
emotional 185
sleep 185
attra@@ 185
mobile 185
ologists 185
ased 185
daughter 185
explo@@ 185
pris@@ 185
bill 185
vot@@ 185
na 185
sorry 185
rever@@ 185
afghanistan 185
wood 184
character 184
dy@@ 184
tac@@ 184
birth 184
capacity 184
ple 184
genome 184
multi@@ 184
laws 184
rema@@ 184
twice 183
capital 183
communication 183
$ 183
decide 183
exi@@ 183
secret 183
artists 183
fle@@ 183
circu@@ 183
causes 183
ror 183
gri@@ 182
instance 182
balance 182
year-old 182
len@@ 182
closer 182
leg@@ 181
chris 181
domin@@ 181
efficient 181
popular 181
le-@@ 181
diseases 181
ue 181
ss 181
task 180
plan@@ 180
ny 180
event 180
stream 180
shed 180
memory 180
purpose 180
300 180
ological 180
ass 180
mul@@ 180
onic 180
designers 180
broken 179
etc 179
worry 179
quick 179
vering 179
green@@ 179
dre@@ 179
a-@@ 179
audi@@ 179
molecules 178
carry 178
straight 178
break@@ 178
enting 178
kin@@ 178
paid 178
dying 178
extra 178
tele@@ 178
auto@@ 177
yers 177
turning 177
party 177
ep 177
decades 177
temp@@ 177
zo@@ 177
trial 177
pressure 177
california 176
surprising 176
tle 176
slo@@ 176
significant 176
ca 176
infrastructure 176
cros@@ 176
spec@@ 176
5,000 176
10@@ 176
charge 176
ping 175
stances 175
bits 175
drop 175
check 175
citizens 175
sin@@ 175
agre@@ 175
devices 175
ency 175
ell 175
achie@@ 175
visu@@ 175
197@@ 174
ory 174
acting 174
willing 174
sphere 174
sol@@ 174
,@@ 174
improve 174
speci@@ 174
our@@ 174
descri@@ 174
published 174
demo@@ 174
sau@@ 174
mark 174
accu@@ 173
collabor@@ 173
calls 173
slightly 173
dea@@ 173
accep@@ 173
meters 173
degrees 173
q@@ 173
pr@@ 173
edge 173
pass 172
eding 172
fortun@@ 172
soli@@ 172
ken 172
organi@@ 172
race 172
tremendous 172
differences 172
rooms 172
gate 172
trouble 172
10,000 172
spa@@ 172
ular 172
coffee 172
crimin@@ 172
glob@@ 172
creates 171
educ@@ 171
fying 171
hol@@ 171
atmosphere 171
tar@@ 171
analy@@ 171
dic@@ 171
yer 171
passed 170
uns 170
hearing 170
justice 170
sch@@ 170
emer@@ 170
noticed 170
nations 170
worst 170
standard 170
ening 170
illu@@ 170
law@@ 170
dep@@ 170
blind 170
lets 169
ours 169
ority 169
cious 169
asia 169
sla@@ 169
address 169
const@@ 169
programs 169
suppor@@ 169
neu@@ 169
stone 169
rock 169
responsibility 168
xi@@ 168
sac@@ 168
arb@@ 168
supply 168
myster@@ 168
ath@@ 168
pli@@ 167
acade@@ 167
counter@@ 167
studying 167
ells 167
dence 167
apart 167
richard 167
repe@@ 167
oxygen 167
flies 167
memor@@ 167
shift 166
work@@ 166
seemed 166
part@@ 166
process@@ 166
mountain 166
radio 166
ards 166
low-@@ 166
window 166
techni@@ 166
tory 166
answers 166
ous@@ 166
sely 166
ung@@ 166
hr@@ 166
notion 165
feels 165
corner 165
hun@@ 165
imag@@ 165
mat@@ 165
communicate 165
basis 165
stration 165
vor@@ 165
al-@@ 165
total 165
thes@@ 165
sand 165
organisms 164
ambi@@ 164
return 164
shel@@ 164
meas@@ 164
frequ@@ 164
phenomenon 164
wei@@ 164
colleagues 164
arti@@ 164
structures 164
boat 163
ko@@ 163
ables 163
dimensional 163
highly 163
condition 163
comfortable 163
organizations 163
helping 163
planets 163
lie 163
civil 163
musli@@ 163
nearly 162
1,000 162
ie@@ 162
centi@@ 162
religious 162
ought 162
giant 162
-year-old 162
painting 162
tissue 162
reg@@ 162
ha 162
possibility 161
necessarily 161
&apos;@@ 161
text 161
relationships 161
rain 161
roll@@ 161
assem@@ 161
yellow 161
apo@@ 161
reduce 161
argument 161
bled 161
tab@@ 161
flu 161
tially 161
benefits 161
kil@@ 161
sle@@ 161
definition 161
repli@@ 161
fix 160
iraq 160
limit@@ 160
electric 160
corpo@@ 160
flight 160
14 160
particles 160
gor@@ 160
easily 160
cial 160
sym@@ 160
bil@@ 160
graph 159
accoun@@ 159
ends 159
foundation 159
knowing 159
figured 159
stors 159
gui@@ 159
ignor@@ 159
pose 159
bran@@ 159
fig@@ 159
bird 159
pic@@ 159
ne 159
hair 159
choices 159
sites 158
neighb@@ 158
reve@@ 158
plac@@ 158
fs 158
attemp@@ 158
engage 158
organic 158
xes 158
fairly 158
dents 158
ily 158
lam@@ 158
missing 158
iled 158
despite 158
adi@@ 157
conne@@ 157
direc@@ 157
tail 157
finished 157
fair 157
algorith@@ 157
landscape 157
consum@@ 157
ink 157
ordin@@ 157
stopped 157
mur@@ 157
interact 157
necessary 157
imagination 157
ken@@ 157
ples 156
profit 156
lucky 156
benefit 156
aspe@@ 156
join 156
held 156
differently 156
mming 156
lying 156
bub@@ 156
bridge 156
pounds 156
architec@@ 156
tas@@ 156
nutri@@ 155
effort 155
ance@@ 155
ultimately 155
mani@@ 155
nel 155
bt 155
communic@@ 155
expec@@ 155
inner 155
gical 155
opportunities 155
ists 155
scen@@ 155
achieve 155
diver@@ 155
stron@@ 155
load 154
saving 154
respect 154
gol@@ 154
puts 154
prize 154
leading 154
farmers 154
brings 154
members 154
core 154
antly 154
adop@@ 154
tter@@ 154
1.@@ 154
bread 154
tations 154
cou@@ 154
passionate 154
ina 153
japan 153
cas@@ 153
pus@@ 153
prison 153
river 153
hero@@ 153
wee@@ 153
mix@@ 153
mini@@ 153
apply 153
symme@@ 153
tal@@ 153
meter 153
russi@@ 153
noise 153
mr. 153
cle 153
attack 153
fur@@ 153
professor 152
oth 152
tom 152
moves 152
designer 152
ong 152
tech 152
invol@@ 152
moments 152
sculp@@ 152
hopefully 152
foreign 152
bers 152
custom@@ 152
engine 152
extin@@ 152
conscious 152
negative 152
bone 152
pollu@@ 151
ologist 151
leads 151
instru@@ 151
covered 151
bility 151
cell@@ 151
15@@ 151
electro@@ 151
enter 151
helps 151
ra 151
ring 151
fighting 151
engineers 151
1,@@ 151
operation 150
journ@@ 150
logi@@ 150
concent@@ 150
appreci@@ 150
thir@@ 150
suffering 150
influence 150
quote 150
extreme 150
resol@@ 150
elements 150
throw 150
jun@@ 150
wan@@ 150
walls 150
iran 150
cir@@ 150
stem 150
visit 150
alize 150
tan 150
coast 149
compar@@ 149
not@@ 149
fold 149
bling 149
deser@@ 149
recei@@ 149
nar@@ 149
shares 149
degree 149
ank 149
13 149
lesson 149
raised 149
bla@@ 149
puzz@@ 149
ten 149
emotions 149
contra@@ 149
fashion 149
discovery 148
plo@@ 148
tial 148
thy 148
competition 148
facebook 148
rou@@ 148
expla@@ 148
forever 148
ior 148
loss 148
fields 148
arian 148
ep@@ 148
trained 148
wer@@ 148
calcu@@ 148
ght@@ 148
carto@@ 148
french 148
compu@@ 148
female 147
mothers 147
gene@@ 147
report 147
evol@@ 147
laun@@ 147
distance 147
operating 147
mathematics 147
tures 147
mc@@ 147
streets 147
hum@@ 147
british 147
sick 147
brilliant 147
profound 147
ering 146
contro@@ 146
tured 146
san 146
promise 146
emplo@@ 146
calcul@@ 146
responsible 146
billions 146
cide 146
adap@@ 146
compli@@ 146
titude 146
easier 146
van@@ 146
wild 146
typical 146
slowly 146
engineer 146
supp@@ 146
holding 146
virtual 146
whi@@ 146
creatures 146
sity 146
colors 146
traffic 146
unt 146
wisdom 146
station 145
bac@@ 145
fill 145
constru@@ 145
capable 145
legal 145
begins 145
bees 145
rain@@ 145
defen@@ 145
identity 145
afford 145
attac@@ 145
circle 145
steps 145
ine@@ 145
mouse 145
sister 145
base 144
sold 144
gradu@@ 144
respond 144
see@@ 144
sector 144
filled 144
matters 144
note 144
count 144
fascinating 144
creation 144
afraid 144
seriously 144
high@@ 144
modi@@ 144
pengu@@ 144
dolph@@ 143
breast 143
hei@@ 143
gun 143
ear 143
facili@@ 143
aci@@ 143
events 143
vement 143
measu@@ 143
powered 143
concep@@ 143
motion 143
func@@ 142
hel@@ 142
rein@@ 142
block 142
brother 142
speech 142
addi@@ 142
vast 142
aling 142
kee@@ 142
importantly 142
agriculture 142
statistics 142
las@@ 142
campaign 142
offer 141
ales 141
heads 141
describe 141
24 141
rop@@ 141
tting 141
professional 141
entirely 141
experiences 141
consumption 141
placed 141
compe@@ 141
196@@ 141
activ@@ 141
predict 141
inci@@ 141
adults 141
impli@@ 141
caught 141
occur@@ 141
simpli@@ 141
app@@ 141
card 141
mates 141
shouldn 140
meat 140
j 140
studied 140
investment 140
log@@ 140
ght-@@ 140
impres@@ 140
embra@@ 140
peri@@ 140
wide 140
virtu@@ 140
gras@@ 140
everyday 140
transform 140
cele@@ 140
fication 140
invest 140
hat@@ 139
factory 139
in-@@ 139
inno@@ 139
400 139
reser@@ 139
u.k. 139
according 139
desert 139
fal@@ 139
allo@@ 139
opposite 139
principles 139
comp@@ 139
suit 139
link 138
cont@@ 138
theater 138
shop 138
quie@@ 138
wave 138
challen@@ 138
ishing 138
acceler@@ 138
perfectly 138
catch 138
deeply 138
leaving 138
cheap 138
argue 138
languages 138
labor 138
photo 138
expres@@ 138
economics 138
prof@@ 138
ves@@ 138
otherwise 138
intelligent 138
galaxy 138
and-@@ 138
normally 138
hed 138
crime 138
port 138
ception 138
invest@@ 137
17 137
agen@@ 137
vor 137
lack 137
stuck 137
equal 137
milli@@ 137
dry 137
spon@@ 137
determin@@ 137
atta@@ 137
infin@@ 137
arms 137
rid 137
ried 137
invisible 137
spirit 136
opened 136
separ@@ 136
ur 136
secon@@ 136
soil 136
distribu@@ 136
constantly 136
limited 136
depression 136
reas@@ 136
sis 136
enjoy 136
ites 136
insects 136
small@@ 136
therapy 136
th-@@ 136
gos 136
airplane 136
bab@@ 136
ference 136
arc@@ 135
sequence 135
tom@@ 135
washington 135
monit@@ 135
childhood 135
due 135
dem@@ 135
dom 135
magazine 135
intervie@@ 135
deliver 135
article 135
horri@@ 135
val 135
belief 135
molecule 135
wear 135
warming 135
posi@@ 135
nam@@ 135
happ@@ 135
background 134
driven 134
ories 134
kl@@ 134
bus@@ 134
identi@@ 134
commercial 134
mexico 134
separate 134
sudden 134
gentle@@ 134
lic 134
co2 134
survival 134
paint 134
wow 134
desire 134
principle 134
worl@@ 134
spring 133
oceans 133
damage 133
believed 133
civilization 133
dreams 133
tumor 133
disco@@ 133
hate 133
majority 133
thinks 133
speak@@ 133
ph 133
spre@@ 133
ite 133
designing 133
dynamic 133
toward 133
invi@@ 133
fif@@ 133
beat 133
european 132
home@@ 132
prototyp@@ 132
subje@@ 132
paul 132
ace 132
keeping 132
exper@@ 132
plus 132
transpor@@ 132
sum 132
ty@@ 132
care@@ 132
concerned 132
jump 132
200@@ 132
philosop@@ 132
independent 132
opini@@ 132
spaces 132
opening 132
obs@@ 132
tomorrow 132
protein 132
evil 132
gation 132
fourth 132
sar@@ 131
viruses 131
volunte@@ 131
organized 131
whom 131
dinner 131
whenever 131
cham@@ 131
2,000 131
brand 131
wealth 131
oli@@ 131
mouth 131
strate 131
pages 131
fellow 131
israel 131
yesterday 131
jum@@ 131
sy 131
musi@@ 131
ka 131
shif@@ 130
institute 130
robo@@ 130
currently 130
generate 130
hidden 130
atures 130
unless 130
tis@@ 130
ct@@ 130
plane 130
heli@@ 130
define 130
habit@@ 130
prevent 130
prob@@ 130
wil@@ 130
letter 129
metaphor 129
gry 129
continent 129
classroom 129
color@@ 129
graduate 129
electrical 129
cognitive 129
followed 129
approach@@ 129
rural 129
husband 129
end@@ 129
advantage 129
sm@@ 129
ills 129
sensor@@ 129
optimi@@ 129
bles 129
wearing 129
treated 129
compared 129
gas@@ 129
male 129
charles 129
photos 129
cers 129
increasingly 129
interaction 129
jud@@ 129
connec@@ 129
drawing 128
managed 128
tural 128
caused 128
roll 128
cis@@ 128
bear 128
tough 128
cular 128
church 128
ol 128
gain 128
failure 128
ordinary 128
plu@@ 128
circum@@ 128
blu@@ 128
investi@@ 128
businesses 128
narra@@ 128
dimensions 128
ury 128
ams 128
secre@@ 128
finger 128
urs 128
bar 127
compare 127
duc@@ 127
hur@@ 127
distribution 127
holes 127
pher@@ 127
ading 127
alle@@ 127
multiple 127
practic@@ 127
worried 127
succe@@ 127
muscle 127
corruption 127
roman@@ 127
gather@@ 126
ert 126
surprise 126
collective 126
unding 126
ery 126
farm 126
construction 126
dies 126
c. 126
invited 126
represent 126
mus@@ 126
exhi@@ 126
spac@@ 126
exists 126
participa@@ 126
tens 126
gon@@ 126
explan@@ 126
interven@@ 126
pathy 126
blin@@ 126
appear 126
affect 126
suppose 125
proud 125
producing 125
wake 125
hell 125
rob@@ 125
worldwide 125
voices 125
shapes 125
versus 125
vote 125
failed 125
facts 125
vice 125
apple 125
signal 125
galaxies 125
threat 125
match 125
transpar@@ 125
debate 125
weather 124
actor 124
artificial 124
hing 124
harder 124
universal 124
experts 124
hyper@@ 124
pleasure 124
di 124
weird 124
cortex 124
equivalent 124
microscop@@ 124
keys 124
consequences 124
weapons 124
houses 124
malaria 124
preser@@ 123
imm@@ 123
ish@@ 123
percei@@ 123
email 123
toi@@ 123
names 123
gran@@ 123
ach 123
heal@@ 123
generations 123
oned 123
paying 123
entreprene@@ 123
negoti@@ 123
scan@@ 123
lunch 123
int 123
ple@@ 123
vege@@ 123
proje@@ 123
gan@@ 123
ts@@ 123
wr@@ 123
discipl@@ 123
leader 123
cloud 123
chemistry 123
thri@@ 123
britain 123
red@@ 123
transl@@ 123
bed@@ 123
incre@@ 123
tter 123
promis@@ 122
japanese 122
mid@@ 122
expression 122
emerging 122
stands 122
vehicle 122
grandmother 122
acts 122
random 122
grown 122
losing 122
leadership 122
ack 122
described 122
cer 122
45 122
cans 122
planning 122
survi@@ 122
graph@@ 122
highest 122
ii 122
honest 122
characteri@@ 122
offi@@ 122
thesis 122
heavy 121
waves 121
fell 121
20th 121
geni@@ 121
seas@@ 121
partici@@ 121
direct 121
activi@@ 121
contr@@ 121
associated 121
strategy 121
ge-@@ 121
mile 121
mortality 121
stran@@ 121
joy 121
progra@@ 121
alists 121
wea@@ 121
camp 121
lim@@ 121
influ@@ 121
mentioned 121
chap@@ 121
friend@@ 121
kan@@ 121
smell 120
leaves 120
hasn 120
rational 120
army 120
ough 120
spot 120
married 120
shoes 120
wit@@ 120
detail 120
christ@@ 120
dest@@ 120
signals 120
isi@@ 120
copy 120
free@@ 120
section 120
simul@@ 120
ution 120
ene@@ 120
va 120
closed 119
chemicals 119
vable 119
coal 119
rates 119
sl@@ 119
sever@@ 119
roughly 119
develop@@ 119
tles 119
depres@@ 119
tam@@ 119
hypo@@ 119
tran@@ 119
ze@@ 119
ham 119
dinosaurs 119
australia 119
collect 119
anima@@ 119
pes 119
george 119
feelings 119
affected 119
zer@@ 119
selling 118
pet 118
appro@@ 118
co 118
surprised 118
soldiers 118
abilities 118
essential 118
brown 118
garden 118
hin@@ 118
details 118
celebra@@ 118
remote 118
library 118
pon@@ 118
steel 118
four@@ 118
violent 118
aring 118
gen 118
seat 118
eleph@@ 118
minister 117
fix@@ 117
michael 117
practical 117
canada 117
northern 117
tin 117
valley 117
din@@ 117
contact 117
accident 117
ements 117
budget 117
rus@@ 117
dealing 117
colum@@ 117
100,000 117
nei@@ 117
dp 117
lady 117
layer 117
fall@@ 117
einstein 117
qua@@ 117
yle 117
dio@@ 117
abstra@@ 117
appar@@ 117
mista@@ 117
letters 117
union 117
dan 117
emotion 117
coral 117
england 117
neighborhood 117
regular 116
chain 116
studio 116
leg 116
phil@@ 116
zon 116
12@@ 116
inte@@ 116
sexual 116
proce@@ 116
meaning@@ 116
announ@@ 116
interface 116
nervous 116
embar@@ 116
resource 116
path@@ 116
wri@@ 116
35 116
bit@@ 116
wine 116
bright 116
stics 116
orig@@ 116
teeth 116
cially 116
forced 116
nant 116
fat 115
molecular 115
stac@@ 115
rock@@ 115
technical 115
broad@@ 115
avoid 115
conf@@ 115
lessons 115
importance 115
intellectual 115
poor@@ 115
amp 115
maker 115
ero@@ 115
lec@@ 115
quali@@ 115
sub-@@ 115
pre-@@ 115
disaster 115
stro@@ 115
sna@@ 115
equipment 115
spoke 115
graphic 115
pil@@ 114
oning 114
hadn 114
skelet@@ 114
categ@@ 114
boo@@ 114
status 114
mathematical 114
researchers 114
ly@@ 114
van 114
ir 114
orders 114
encoura@@ 114
ritual 114
cultures 114
kilometers 114
sight 114
movies 114
motiv@@ 114
sty 114
sen 114
clou@@ 114
sele@@ 114
condu@@ 114
metal 114
operate 114
feedback 114
trip 114
kenya 114
clinical 114
shall 114
glam@@ 114
gal@@ 113
newspaper 113
management 113
preg@@ 113
mod@@ 113
sad 113
smar@@ 113
double 113
democratic 113
gold 113
solved 113
jer@@ 113
whereas 113
son@@ 113
emergen@@ 113
stood 113
users 113
ize 113
addition 113
homes 113
ests 113
player 113
killing 113
hall 113
play@@ 113
shoul@@ 113
absolute 113
thoughts 113
spectrum 113
drink 112
tox@@ 112
awful 112
17@@ 112
ana 112
life@@ 112
controll@@ 112
department 112
inti@@ 112
fundament@@ 112
daily 112
bus 112
round 112
demand 112
edu@@ 112
arrived 112
illness 112
master 112
tch 112
sources 112
ere 112
alternative 112
ctor 112
reci@@ 112
empty 112
occasi@@ 112
trilli@@ 112
prove 112
organs 112
trials 112
thers 112
ingu@@ 112
open-@@ 112
nigeria 112
bin@@ 112
150 111
anti-@@ 111
-up 111
visi@@ 111
deeper 111
wire 111
de-@@ 111
gli@@ 111
intui@@ 111
ath 111
aries 111
radical 111
oral 111
testing 111
enjo@@ 111
launched 111
thomas 111
long-term 111
efully 111
gely 111
effectively 111
od 111
mix 111
transition 111
exchange 111
reaction 111
saved 111
relevant 111
perception 111
curious 111
requi@@ 111
elling 111
ba 111
sharks 111
ison 111
warm 111
experienced 110
adult 110
intern@@ 110
advan@@ 110
gam@@ 110
transformation 110
establi@@ 110
partner 110
los 110
ption 110
underneath 110
account 110
chr@@ 110
faith 110
makers 110
suggests 110
scene 110
mountains 110
controlled 110
considered 110
finish 110
gling 110
gravity 110
possibilities 110
convince 110
restaurant 110
insu@@ 110
james 110
flat 110
frank@@ 110
phi@@ 110
21@@ 110
diet 109
ressed 109
horse 109
cape 109
f-@@ 109
productive 109
jac@@ 109
spir@@ 109
setting 109
butt@@ 109
inning 109
definitely 109
facing 109
hero 109
ols 109
advanced 109
property 109
ug@@ 109
by@@ 109
specifically 109
ome 109
wars 109
satis@@ 109
ogra@@ 109
roots 109
diam@@ 109
cil 109
angle 109
target 109
characters 109
post-@@ 109
art@@ 109
99 109
increasing 109
3d 109
fossil 109
kno@@ 109
fail 109
chicken 109
via 109
epidemic 109
theme 108
marine 108
connections 108
breath 108
struggle 108
ade 108
yl@@ 108
ef@@ 108
shir@@ 108
honor 108
calling 108
distin@@ 108
unds 108
birth@@ 108
privi@@ 108
folks 108
valuable 108
suggest@@ 108
grand 108
reme@@ 108
nasa 108
sides 108
respe@@ 108
click 108
ships 108
pole 108
wra@@ 108
gift 108
previous 108
mented 108
variety 108
tane@@ 108
evolutionary 108
protection 108
portra@@ 108
analysis 108
magnetic 108
sugar 108
awareness 108
breaking 107
dding 107
stable 107
miss 107
kar@@ 107
ologi@@ 107
primary 107
aming 107
osity 107
atory 107
tradi@@ 107
ate@@ 107
prime 107
ras@@ 107
aled 107
fewer 107
explains 107
cards 107
islam@@ 107
wings 107
civili@@ 107
emissions 107
phan@@ 107
identify 106
broke 106
buying 106
beach 106
ecosystem 106
tradition 106
spli@@ 106
clock 106
lifetime 106
vin@@ 106
prepared 106
fail@@ 106
kitchen 106
relatively 106
guar@@ 106
express 106
platform 106
coura@@ 106
dots 106
mention 106
radiation 106
zi@@ 106
craft 106
bee@@ 106
2008 106
conduc@@ 106
dogs 106
fresh 106
fishing 106
villa@@ 106
silk 106
paraly@@ 105
gles 105
tt 105
driver 105
require 105
nor 105
employees 105
efficiency 105
existence 105
bine 105
goals 105
tons 105
introduced 105
plays 105
vulnerable 105
scot@@ 105
bang 105
zone 105
spor@@ 105
method 105
credit 105
ush 105
stock 105
videos 105
cross 105
clas@@ 105
players 105
marketing 105
cky 105
axis 105
ans@@ 105
battery 105
bru@@ 105
ination 104
aded 104
fund 104
admini@@ 104
bush 104
convinced 104
ballo@@ 104
stupid 104
picked 104
notes 104
pig@@ 104
ember 104
defined 104
generally 104
pleas@@ 104
religi@@ 104
chri@@ 104
suggest 104
cents 104
invention 104
techniques 104
darwin 104
windows 104
maps 104
typically 104
cker 104
govern@@ 104
amed 104
twitter 104
brothers 104
planes 104
hig@@ 104
amo@@ 103
dent@@ 103
lock 103
intri@@ 103
rene@@ 103
ight 103
winter 103
sets 103
rapi@@ 103
safety 103
deter@@ 103
roads 103
affec@@ 103
represents 103
marriage 103
remin@@ 103
accept 103
kers 103
than@@ 103
laptop 103
liquid 103
patent 103
battle 103
gap 103
pulled 103
ladies 103
frame@@ 103
factor 103
sequ@@ 103
boundar@@ 103
computing 103
3,000 103
stry 103
exercise 103
adverti@@ 103
properties 103
photographs 103
chimpanze@@ 103
hot@@ 103
swim 103
artic@@ 102
mira@@ 102
writer 102
soci@@ 102
former 102
reli@@ 102
gay 102
af@@ 102
iden@@ 102
ack@@ 102
germany 102
switch 102
dynam@@ 102
motor 102
- 102
195@@ 102
received 102
ord@@ 102
serve 102
anding 102
cooking 102
fire@@ 102
processes 102
reward 102
architect 102
ternal 102
behaviors 102
brazil 102
trage@@ 101
rup@@ 101
pacific 101
sett@@ 101
liked 101
rect 101
replace 101
sending 101
poetry 101
tests 101
atri@@ 101
unlike 101
components 101
collapse 101
discussion 101
alist 101
nat@@ 101
astronom@@ 101
exploration 101
stru@@ 101
volu@@ 101
eastern 101
atom@@ 101
environments 101
hard@@ 101
que@@ 101
ingre@@ 101
600 101
inse@@ 101
aten 101
blocks 101
graphi@@ 101
proteins 101
destruction 101
tries 101
arab 101
mol@@ 101
pin@@ 100
curi@@ 100
onal 100
iling 100
requires 100
harvard 100
strated 100
ished 100
goods 100
centers 100
manage 100
unusual 100
atlan@@ 100
wired 100
hit@@ 100
industri@@ 100
cry 100
berg 100
bia 100
psychology 100
sentence 100
watched 100
crash 100
politicians 100
gest@@ 100
contin@@ 100
afri@@ 100
reven@@ 100
steve 100
unts 99
carrying 99
eff@@ 99
director 99
collaboration 99
technological 99
southern 99
cational 99
sages 99
drin@@ 99
applied 99
inevi@@ 99
gressi@@ 99
buil@@ 99
encourage 99
bottle 99
trick 99
jan@@ 99
dered 99
lay 99
ctors 99
ft@@ 99
wise 99
sophisticated 99
earth@@ 99
piano 99
hes 99
risks 99
roof 99
confidence 99
sensitive 99
need@@ 99
wash@@ 99
asks 99
tains 99
ride 98
string 98
wikipedia 98
visible 98
phenomen@@ 98
introduce 98
naturally 98
ums 98
coo@@ 98
who@@ 98
teri@@ 98
appropriate 98
grid 98
rare 98
resear@@ 98
arri@@ 98
percentage 98
location 98
0 98
associ@@ 98
strength 98
hits 98
mirror 98
wid@@ 98
burning 98
paradig@@ 98
satellite 98
surgeon 98
sky@@ 98
frame 98
treat@@ 98
member 98
dow 98
mistake 98
movements 98
laugh@@ 98
noon 98
solving 98
redu@@ 98
style 98
ckets 98
quanti@@ 98
ili@@ 98
sustain@@ 98
rus 98
laboratory 98
mathemati@@ 98
tables 98
unit 98
five-@@ 98
smile 98
ball@@ 98
terror@@ 98
rand@@ 98
ferti@@ 97
the-@@ 97
verage 97
situations 97
peak 97
autonom@@ 97
licen@@ 97
virg@@ 97
mr@@ 97
traveling 97
cutting 97
reti@@ 97
aw@@ 97
cab@@ 97
thin@@ 97
orche@@ 97
arab@@ 97
medium 97
holds 97
sex@@ 97
pants 97
paint@@ 97
islam 97
novel 97
personally 97
house@@ 97
nity 97
gover@@ 97
ai@@ 97
gulf 97
predat@@ 96
eco@@ 96
eller 96
francisco 96
isol@@ 96
manufacturing 96
healthcare 96
00@@ 96
hospitals 96
temporary 96
raising 96
of-@@ 96
hydrogen 96
deci@@ 96
musical 96
obje@@ 96
behavi@@ 96
atoms 96
caus@@ 95
tual 95
sees 95
exam@@ 95
blan@@ 95
user 95
75 95
goo@@ 95
burn 95
u.n. 95
display 95
mas 95
fascin@@ 95
eland 95
hil@@ 95
arily 95
l-@@ 95
sper@@ 95
crowd 95
capture 95
colli@@ 95
2007 95
bel 95
taste 95
2000 95
open@@ 95
story@@ 95
cau@@ 95
comfort 95
hurt 94
acci@@ 94
crow@@ 94
macy 94
sav@@ 94
ecu@@ 94
key@@ 94
gest 94
stu@@ 94
band 94
mush@@ 94
fran@@ 94
ids 94
integr@@ 94
tainment 94
ami 94
syste@@ 94
ulti@@ 94
innovative 94
sor 94
hotel 94
bet 94
sir 94
pop 94
mand@@ 94
nin@@ 94
bay 93
milk 93
twi@@ 93
instrument 93
relative 93
inspiration 93
harv@@ 93
spr@@ 93
gress 93
lou@@ 93
post 93
robert 93
ameras 93
xide 93
aro@@ 93
inspi@@ 93
tracking 93
staf@@ 93
quant@@ 93
absor@@ 92
passi@@ 92
phr@@ 92
dur@@ 92
blog 92
youtube 92
wher@@ 92
poten@@ 92
ress 92
cast 92
mad 92
competi@@ 92
tate 92
unger 92
element 92
simil@@ 92
bo 92
za@@ 92
swa@@ 92
falls 91
stan@@ 91
flexi@@ 91
dir@@ 91
inf@@ 91
fit@@ 91
gy@@ 91
susta@@ 91
six@@ 91
pollen 91
propor@@ 91
comple@@ 91
confli@@ 91
dam@@ 91
ware 91
tim 91
yo 90
increas@@ 90
fabri@@ 90
enga@@ 90
stress 90
web@@ 90
pay@@ 90
recycl@@ 90
iting 90
water@@ 90
upp@@ 90
lifest@@ 90
astero@@ 90
queen 90
post@@ 90
stun@@ 90
was@@ 90
tribu@@ 89
less@@ 89
assi@@ 89
nap@@ 89
gla@@ 89
perman@@ 89
option 89
pakistan 89
plans 89
ual 89
restri@@ 88
sal 88
vehi@@ 88
opp@@ 88
institution 88
d. 88
2010 88
origin@@ 88
stand@@ 88
resili@@ 88
foc@@ 88
polio 88
ada@@ 87
toler@@ 87
atten@@ 87
fau@@ 87
cool@@ 87
phili@@ 87
discus@@ 87
navi@@ 87
aug@@ 87
survey 87
2.@@ 87
scrat@@ 87
pack 87
thin 87
king@@ 87
inje@@ 87
rab@@ 87
rat@@ 87
bag@@ 87
black@@ 87
success@@ 87
metho@@ 87
tile 87
tube 87
strug@@ 86
anth@@ 86
sa 86
ya 86
designs 86
bert 86
teams 86
mean@@ 86
bin 86
port@@ 86
tili@@ 86
esses 86
thou@@ 86
elec@@ 86
proto@@ 85
rhyth@@ 85
form@@ 85
hydro@@ 85
trin@@ 85
ium 85
stian 85
nose 85
partner@@ 85
16@@ 85
tw@@ 85
aller@@ 85
sand@@ 85
ford 85
compon@@ 85
ti 85
tie 85
alt 84
spar@@ 84
clip 84
oud 84
inn@@ 84
hood 84
ing-@@ 84
chil@@ 84
dor@@ 84
prepar@@ 84
imple@@ 84
ye 84
stant 84
blog@@ 84
ier 84
sahar@@ 84
scop@@ 84
obama 84
une 83
gender 83
trend 83
oles@@ 83
ay 83
september 83
co-@@ 83
automo@@ 83
wes@@ 83
telescope 83
scan 83
band@@ 83
archi@@ 83
epi@@ 83
sign@@ 83
fing@@ 83
organ 83
ee@@ 83
che 83
repu@@ 83
roo@@ 83
philosoph@@ 83
diagra@@ 82
entrepr@@ 82
gates 82
tz@@ 82
appl@@ 82
chicago 82
so-@@ 82
elimin@@ 82
gration 82
ania 82
haiti 82
uss 82
ela 82
ang@@ 82
mom@@ 81
ain 81
er-@@ 81
great@@ 81
instin@@ 81
budd@@ 81
partic@@ 81
films 81
curr@@ 81
multi-@@ 81
consequ@@ 81
tee 81
interpre@@ 81
exponenti@@ 81
certain@@ 81
ai 81
m. 80
net@@ 80
yn@@ 80
bene@@ 80
boston 80
essen@@ 80
songs 80
tem@@ 80
gment 80
hell@@ 80
poly@@ 80
genom@@ 80
ank@@ 80
sticks 79
21 79
lung 79
pharma@@ 79
sue 79
feder@@ 79
ern 79
hen@@ 79
uns@@ 79
14@@ 79
2005 79
sci@@ 79
manufac@@ 79
ker@@ 79
rich@@ 79
cyber@@ 79
dney 79
p-@@ 79
fan 79
glas@@ 79
dun@@ 79
bun@@ 78
scho@@ 78
paris 78
wand@@ 78
stent 78
phase 78
organis@@ 78
you@@ 78
brow@@ 78
simpl@@ 78
kill@@ 78
travel@@ 78
input 78
soft 78
regu@@ 78
som@@ 78
standards 78
iphone 78
ever@@ 78
spin@@ 78
pyrami@@ 77
fab@@ 77
spra@@ 77
surpris@@ 77
year-@@ 77
interest@@ 77
retro@@ 77
adam 77
nel@@ 77
kni@@ 77
ern@@ 77
ager 77
symptom@@ 77
chip 77
pen 77
2009 76
one@@ 76
commun@@ 76
ki 76
hill 76
pel@@ 76
collap@@ 76
moder@@ 76
ims 76
relation 76
interview 76
ord 76
bacteri@@ 76
illegal 76
cock@@ 76
ually 76
any@@ 76
statisti@@ 76
photo@@ 76
origami 76
korea 76
tour 76
ser 76
kins 76
dop@@ 76
lot@@ 76
stimul@@ 75
autis@@ 75
follo@@ 75
angel@@ 75
mon 75
mili@@ 75
uganda 75
grab 75
bat 75
gps 75
crea@@ 75
real@@ 75
wol@@ 75
ku@@ 75
tes@@ 75
rhe@@ 75
dh 75
texas 74
wis@@ 74
stit@@ 74
umin@@ 74
vulner@@ 74
19 74
gent 74
indu@@ 74
theor@@ 74
tricks 74
proper@@ 74
genu@@ 74
amin@@ 74
tag@@ 74
nets 74
strategi@@ 74
got@@ 74
ney 74
tag 74
ota 73
prop@@ 73
market@@ 73
hunger 73
citi@@ 73
add@@ 73
clever 73
partment 73
vered 73
bell 73
95 73
club 73
refer@@ 73
frank 73
fel@@ 73
olymp@@ 73
peter 73
popu@@ 72
woo@@ 72
stanford 72
27 72
manipu@@ 72
anda 72
agenda 72
an-@@ 72
nee 72
sent@@ 72
symbol 72
2004 72
experim@@ 72
yn 72
sensi@@ 72
dru@@ 72
meetings 72
tus 72
deta@@ 72
psychi@@ 72
journalist 72
nest 72
neuron 72
illusion 72
ome@@ 71
duced 71
bi 71
00 71
usual 71
zz 71
les@@ 71
dama@@ 71
brief 71
stly 71
attle 71
65 71
pad 71
thr@@ 71
forma@@ 71
orbit 71
transi@@ 71
pool 71
defin@@ 71
gall@@ 71
ald 71
aper 71
ket 71
fusion 71
zer 70
commer@@ 70
bud@@ 70
motivation 70
ar-@@ 70
n-@@ 70
indepen@@ 70
olo@@ 70
long-@@ 70
tely 70
sage 70
profession@@ 70
arly 70
ax@@ 70
tis 70
isra@@ 70
pilot 70
distri@@ 70
gery 70
zations 70
cel@@ 70
ji@@ 70
22 70
requ@@ 70
links 70
derek 70
plasti@@ 70
bf 70
fam@@ 69
willi@@ 69
talent 69
migr@@ 69
what@@ 69
agri@@ 69
nation@@ 69
hau@@ 69
rier 69
orange 69
gent@@ 69
eping 69
bow@@ 69
vy 69
pa 69
frag@@ 69
disc@@ 69
super 69
ben 69
turing 69
chaos 69
silicon 68
foun@@ 68
anthropo@@ 68
deep@@ 68
mess@@ 68
cher@@ 68
sion@@ 68
favor@@ 68
film@@ 68
eric 68
lege 68
manhattan 68
humor 68
bol@@ 68
chromo@@ 68
gang 68
bis@@ 68
ghana 68
innova@@ 68
op 67
verse 67
reson@@ 67
pus 67
compan@@ 67
nia 67
janu@@ 67
martin 67
experiment@@ 67
diff@@ 67
usi@@ 67
fic 67
elegan@@ 67
194@@ 66
sty@@ 66
trou@@ 66
ograph@@ 66
angeles 66
tain@@ 66
2003 66
fortunately 66
ange@@ 66
expan@@ 66
golf 66
revol@@ 66
bby 66
wild@@ 66
viol@@ 66
diplo@@ 66
tude 66
saturn 66
ski@@ 66
iel 66
transforma@@ 66
engagement 66
vagina 66
sw 66
juli@@ 65
weal@@ 65
vo 65
tiv@@ 65
diabetes 65
class@@ 65
oxford 65
elt 65
.com 65
expen@@ 65
dam 65
grab@@ 65
hang 65
transport 65
microsoft 65
jack 65
skep@@ 65
pati@@ 65
40@@ 65
geographic 65
k-@@ 64
stam@@ 64
ene 64
trau@@ 64
23 64
moment@@ 64
sation 64
var@@ 64
anony@@ 64
brie@@ 64
han 64
enced 64
viet@@ 64
stere@@ 64
mary 64
filter 64
legi@@ 64
hall@@ 64
gand@@ 64
ette 63
2006 63
nes@@ 63
zens 63
cise 63
republi@@ 63
univer@@ 63
dimension 63
dialo@@ 63
mir@@ 63
sandwi@@ 63
wa 63
fe 63
syl@@ 63
text@@ 63
alzheimer 63
sel 63
dinosau@@ 63
vas@@ 63
phosp@@ 63
oms 62
plat@@ 62
ville 62
danger@@ 62
alien 62
26 62
vels 62
harmon@@ 62
expedi@@ 62
consci@@ 62
mail 62
astro@@ 62
dig 62
gst 62
hollywood 62
ultra@@ 62
democra@@ 61
cambridge 61
trends 61
teena@@ 61
ib@@ 61
parado@@ 61
athei@@ 61
pir@@ 61
poster 61
cous@@ 61
nai@@ 61
rely 61
mo 61
listen@@ 61
intro@@ 61
confi@@ 61
geno@@ 61
astrop@@ 60
are@@ 60
250 60
fres@@ 60
base@@ 60
instal@@ 60
2001 60
pan 60
florida 60
pon 60
lear@@ 60
psycho@@ 60
stimu@@ 60
pho@@ 60
element@@ 60
spee@@ 60
tenden@@ 60
13@@ 60
rio 60
may@@ 60
questi@@ 60
jon@@ 60
lee 60
sequen@@ 60
neighbor@@ 60
transp@@ 60
hn@@ 60
1960 59
tax@@ 59
alex@@ 59
sport 59
sugge@@ 59
vio@@ 59
dau@@ 59
kel@@ 59
howard 59
blogs 59
collea@@ 59
theore@@ 59
geogra@@ 59
tz 59
ater 59
og@@ 59
kor@@ 59
hori@@ 59
brian 59
32 58
initiative 58
ko 58
haw@@ 58
immedi@@ 58
bronx 58
institu@@ 58
s. 58
schizophren@@ 58
andre@@ 58
tony 58
ah@@ 58
diffic@@ 58
quot@@ 58
patri@@ 58
nifi@@ 58
itali@@ 58
gore 58
vil 58
differ@@ 58
teen@@ 58
priv@@ 58
steven 58
mote 58
sey 58
ghter 58
decisi@@ 58
gut 58
chol@@ 57
gir@@ 57
ices 57
condi@@ 57
whit@@ 57
bizar@@ 57
mem@@ 57
with@@ 57
800 57
mode 57
pump@@ 57
25@@ 57
temper@@ 57
matri@@ 57
surge@@ 57
tober 57
analog@@ 57
verb@@ 57
tour@@ 57
mm 57
zu@@ 57
enth@@ 57
gan 57
kit@@ 57
optimis@@ 57
cin 57
angiogen@@ 57
tumor@@ 57
dia 56
expe@@ 56
fi 56
jesus 56
au 56
kon@@ 56
dation 56
primi@@ 56
tsun@@ 56
sop@@ 56
lux@@ 56
coll@@ 56
mous 56
henry 56
za 56
é@@ 56
anderth@@ 56
kb 56
biolog@@ 55
mption 55
inde@@ 55
ren 55
intuition 55
syndro@@ 55
d.@@ 55
jim 55
ri 55
versi@@ 55
rying 55
febru@@ 55
choo@@ 55
kev@@ 55
fair@@ 55
smith 55
sher@@ 55
700 55
ghtly 55
hai 55
run@@ 55
hier@@ 55
50@@ 55
abra@@ 55
mammo@@ 55
antibio@@ 54
joe 54
193@@ 54
ind 54
inging 54
alli@@ 54
veter@@ 54
cei@@ 54
ander 54
mechanis@@ 54
bedro@@ 54
homo 54
eness 54
sche@@ 54
profi@@ 54
hallu@@ 54
symbo@@ 54
geor@@ 54
hus@@ 54
wind@@ 54
universi@@ 54
bak@@ 54
ardo 54
explosion 54
boun@@ 54
minim@@ 54
jo 54
85 54
terrori@@ 54
kr@@ 54
gle 53
experi@@ 53
24@@ 53
ipo@@ 53
ttle 53
engine@@ 53
immer@@ 53
los@@ 53
batter@@ 53
span@@ 53
simulation 53
ires 53
rul@@ 53
geome@@ 53
ale@@ 53
bob 53
gur@@ 53
bend 53
ut 53
ala 53
ste 53
bei@@ 53
hl@@ 52
emp@@ 52
pid 52
dile@@ 52
bli@@ 52
therap@@ 52
garage 52
alter@@ 52
miner@@ 52
planet@@ 52
ht@@ 52
will@@ 52
ario 52
restaurants 52
introdu@@ 52
midd@@ 52
ade@@ 52
sons 52
kat@@ 52
invasi@@ 52
raft 52
iness 51
streng@@ 51
h-@@ 51
stal@@ 51
dings 51
2,@@ 51
signific@@ 51
teach@@ 51
umines@@ 51
29 51
johnson 51
mou@@ 51
echn@@ 51
fes@@ 51
initi@@ 51
lincol@@ 51
carol@@ 50
environ@@ 50
vent 50
hat 50
mana@@ 50
metaph@@ 50
ss@@ 50
banglades@@ 50
nigeri@@ 50
att@@ 50
dow@@ 50
28 50
shang@@ 50
extre@@ 50
taliban 50
clear@@ 50
ander@@ 50
phen 49
tale 49
individu@@ 49
valu@@ 49
nis@@ 49
phot@@ 49
typ@@ 49
tanz@@ 49
iety 49
interpretation 49
tel 49
evi@@ 49
rs 49
dul@@ 49
leon@@ 49
benjam@@ 49
kore@@ 49
bai 49
mt 49
oxyto@@ 49
jose@@ 49
entrop@@ 49
venti@@ 49
asse@@ 49
fing 48
ore@@ 48
120 48
.a. 48
dens 48
pag@@ 48
w-@@ 48
dung 48
alo@@ 48
tra 48
sour@@ 48
g-@@ 48
aster 48
eting 48
q 48
thei@@ 48
sei@@ 48
biot@@ 48
revolution@@ 48
magne@@ 48
rat 48
psychop@@ 48
campaig@@ 47
lei@@ 47
amer@@ 47
barri@@ 47
hol 47
festi@@ 47
cess@@ 47
gens 47
previ@@ 47
ration@@ 47
caf@@ 47
ce-@@ 47
mor 47
ap 47
gras 47
labor@@ 46
moun@@ 46
laptops 46
concern@@ 46
doc@@ 46
telescop@@ 46
strat@@ 46
landscap@@ 46
cient 46
john@@ 46
bec@@ 46
justi@@ 46
finan@@ 46
quad@@ 46
soldi@@ 46
mach 46
finger@@ 46
jam@@ 45
gif@@ 45
avo@@ 45
pause 45
mov@@ 45
opti@@ 45
knowle@@ 45
lief 45
peop@@ 45
popul@@ 45
rot 45
carb@@ 45
vel 45
earli@@ 45
lie@@ 45
mark@@ 45
t. 45
iso@@ 45
asy 45
fallen 45
figu@@ 45
chemo@@ 45
stock@@ 45
tioned 44
there@@ 44
tier 44
read@@ 44
offen@@ 44
nee@@ 44
photogra@@ 44
tage 44
manu@@ 44
spu@@ 44
inven@@ 44
spea@@ 44
prac@@ 44
rei@@ 44
sten@@ 44
impul@@ 44
fashi@@ 44
chem@@ 44
ames 44
cogni@@ 43
billi@@ 43
yor@@ 43
cum@@ 43
machin@@ 43
remark@@ 43
motor@@ 43
gil@@ 43
probe 43
gab@@ 43
dose 43
meta@@ 43
ung 43
wander@@ 43
jen@@ 43
du 43
austr@@ 43
ritu@@ 42
seem@@ 42
horizon@@ 42
sim@@ 42
libr@@ 42
30@@ 42
zon@@ 42
gie 42
bir@@ 42
enzy@@ 42
beauti@@ 42
signifi@@ 42
gravi@@ 42
ital 42
bank@@ 42
ich 42
dient 42
cess 42
use@@ 42
anal@@ 42
ban 42
mam@@ 42
ig 41
substan@@ 41
wart 41
rais@@ 41
abor@@ 41
espe@@ 41
satur@@ 41
gel 41
infra@@ 41
m-@@ 41
mathema@@ 41
unter@@ 41
afgh@@ 41
sud@@ 41
llan@@ 41
ision 41
bile 41
selves 41
ort 41
ularly 41
program@@ 41
transplan@@ 41
fest@@ 40
sexu@@ 40
lap@@ 40
utes 40
ama 40
phic 40
tel@@ 40
é 40
dium 40
tent@@ 40
+ 40
proble@@ 40
ond 40
ech@@ 40
fossi@@ 40
mend 40
tu 40
authenti@@ 40
lun@@ 40
en-@@ 40
met@@ 39
equi@@ 39
abo@@ 39
ener@@ 39
lli@@ 39
eing 39
stes 39
oll@@ 39
stol@@ 39
simu@@ 39
phab@@ 39
pedia 39
nes 39
world@@ 39
num@@ 39
alterna@@ 39
know@@ 39
chel 39
ja 39
satelli@@ 39
zin@@ 39
vey 39
prise 38
rest@@ 38
chur@@ 38
cris@@ 38
gold@@ 38
oce@@ 38
vir@@ 38
sup@@ 38
anno@@ 38
stopp@@ 38
perfe@@ 38
princi@@ 38
stir@@ 38
strate@@ 38
anten@@ 38
enor@@ 38
ston 38
ficial 38
arm@@ 38
emotion@@ 38
epide@@ 37
zy 37
gues 37
con 37
nis 37
tty 37
implan@@ 37
nie 37
para@@ 37
politi@@ 37
ve-@@ 36
rt 36
beh@@ 36
gel@@ 36
ins@@ 36
teenager 36
kal@@ 36
defini@@ 36
kn@@ 36
py@@ 36
nik 36
sam 36
norden 36
lan 35
itely 35
brilli@@ 35
ter-@@ 35
actu@@ 35
dol@@ 35
materi@@ 35
profess@@ 35
ket@@ 35
exer@@ 35
aa@@ 35
stin 35
com 35
enha@@ 35
well@@ 35
melt 35
deb@@ 35
kol@@ 35
soc@@ 35
nt 35
ann 35
tts 35
mati@@ 34
alia 34
dar 34
vid 34
scap@@ 34
scienti@@ 34
ause 34
effici@@ 34
nom@@ 34
tali@@ 34
stein 34
inger 34
unity 34
responsi@@ 34
stabili@@ 34
mber 34
laden 34
dden 33
convin@@ 33
pau@@ 33
appropri@@ 33
quick@@ 33
ross 33
eth 33
stan 33
tedx@@ 33
sands 33
seri@@ 33
aly@@ 33
fest 33
belo@@ 33
ough@@ 32
tech@@ 32
eil 32
west@@ 32
ang 32
adul@@ 32
through@@ 32
ington 32
lied 32
ire 32
chemi@@ 32
tiger 32
von 32
phy@@ 32
agi@@ 32
aus@@ 32
mails 32
resul@@ 31
beha@@ 31
kilometer 31
energi@@ 31
mobili@@ 31
fically 31
unter 31
hir@@ 31
mexi@@ 31
ollywood 31
perspe@@ 31
usa 31
ler@@ 31
brazi@@ 30
ousness 30
technologi@@ 30
yel@@ 30
atmosp@@ 30
ony@@ 30
bilities 30
integri@@ 30
mau@@ 30
issu@@ 30
mann 30
el-@@ 30
anthro@@ 29
notic@@ 29
suc@@ 29
zen@@ 29
vul@@ 29
beginn@@ 29
b. 29
ctly 29
rie@@ 29
beg@@ 29
kei@@ 29
electri@@ 29
paki@@ 29
dna@@ 29
astron@@ 29
wen@@ 29
volun@@ 29
xic@@ 29
traff@@ 29
natur@@ 28
tages 28
chron@@ 28
inge 28
halt 28
child@@ 28
jung@@ 28
muse@@ 28
bet@@ 28
passion@@ 28
vat@@ 28
grow@@ 28
identifi@@ 28
die@@ 28
tish 28
mach@@ 28
hundre@@ 28
mers 28
figh@@ 28
las 28
sie 28
tradition@@ 27
ein@@ 27
garten 27
massi@@ 27
ada 27
exist@@ 27
bang@@ 27
nett 27
tren@@ 27
shou@@ 27
mama 27
easi@@ 27
marke@@ 27
frie@@ 27
computer@@ 27
hn 27
hospit@@ 27
gala@@ 27
sten 26
kra@@ 26
gigan@@ 26
busin@@ 26
tte 26
watt 26
mmer 26
deca@@ 26
vili@@ 26
dee@@ 26
has@@ 26
bron@@ 26
wom@@ 26
lage 26
sie@@ 26
recy@@ 26
gement 26
maga@@ 26
hm@@ 26
kinder@@ 25
ens@@ 25
sug@@ 25
effec@@ 25
freu@@ 25
block@@ 25
nega@@ 25
doll@@ 25
standar@@ 25
á@@ 25
chs 25
capac@@ 25
k. 25
v-@@ 25
stim@@ 25
valent 25
eig@@ 25
del 25
hiv-@@ 25
sach@@ 25
hen 25
zine 25
ques 24
tot@@ 24
tops 24
dn@@ 24
hung 24
infor@@ 24
cker@@ 24
psy@@ 24
accor@@ 24
stell@@ 24
ssi@@ 24
stati@@ 24
boot 24
soft@@ 24
perfor@@ 23
urban@@ 23
bare 23
nah 23
inner@@ 23
euro@@ 23
relev@@ 23
pers@@ 23
fort 23
us-@@ 23
elli@@ 23
grou@@ 23
sear@@ 23
fas@@ 23
imi@@ 23
aner 23
performan@@ 22
ira@@ 22
tality 22
allen 22
elle 22
rd 22
schwar@@ 22
symp@@ 22
technolog@@ 22
vil@@ 22
intelli@@ 22
das 22
ab 22
chin@@ 22
enz@@ 22
alter 22
eit 22
oly@@ 22
aller 22
iti 22
bot 22
presi@@ 22
gat@@ 22
stin@@ 21
nie@@ 21
benef@@ 21
alls 21
rief 21
socie@@ 21
big@@ 21
tremend@@ 21
awar@@ 21
employe@@ 21
git@@ 21
patter@@ 21
evolution@@ 21
marri@@ 21
sth@@ 21
jour@@ 21
chers 21
kle 21
bibli@@ 21
americ@@ 21
intellec@@ 21
europa 21
vag@@ 21
kam@@ 21
len 21
cals 20
imp@@ 20
spiritu@@ 20
zar@@ 20
let@@ 20
emis@@ 20
toll 20
pian@@ 20
resour@@ 20
hou@@ 20
vide@@ 20
avail@@ 20
tempor@@ 20
phen@@ 20
rant 20
rand 20
atur@@ 20
rin@@ 20
kir@@ 20
anim@@ 19
pel 19
digit@@ 19
famili@@ 19
tie@@ 19
kab@@ 19
osau@@ 19
gar 19
aus 19
oxy@@ 19
vail@@ 19
tea@@ 19
poe@@ 19
energ@@ 19
hri@@ 19
pie@@ 19
sat@@ 19
stop@@ 19
bili@@ 19
eins 19
je 19
lang@@ 19
ox@@ 18
maj@@ 18
ein 18
foreig@@ 18
internation@@ 18
milit@@ 18
kur@@ 18
tten 18
u.@@ 18
eur@@ 18
other@@ 18
wiki@@ 18
ruption 18
handy 18
aler 18
atz 17
professi@@ 17
parti@@ 17
call@@ 17
ik 17
ppe 17
intelle@@ 17
anders 17
europe@@ 17
lem 17
zur@@ 17
witz 17
geria 17
meer 17
fort@@ 16
mond 16
a. 16
won@@ 16
tern@@ 16
mali@@ 16
eri@@ 16
hr 16
miss@@ 16
deu@@ 16
cule 16
) 16
situ@@ 16
kay 16
kri@@ 16
gul@@ 16
kamen 16
2-@@ 16
nas@@ 16
fahr@@ 16
mee 16
kt 16
solu@@ 15
ffe 15
rhy@@ 15
affe@@ 15
gend 15
glas 15
comfort@@ 15
klein 15
auto 15
bau@@ 15
informa@@ 15
prot@@ 15
event@@ 15
lang 15
leu@@ 15
lich@@ 15
enheit 15
geri@@ 15
kap@@ 15
bren@@ 14
intensi@@ 14
goog@@ 14
dies@@ 14
cken@@ 14
vern@@ 14
lagen 14
% 14
simp@@ 14
derer 14
ille 14
zy@@ 14
aut 14
wu@@ 14
fern@@ 14
sophisti@@ 14
invisi@@ 14
bitten 14
= 14
hab 14
esse 14
.b. 14
train@@ 14
posite 14
engli@@ 14
feed@@ 14
extrem@@ 14
ould 14
diab@@ 14
pover@@ 13
unbe@@ 13
nte 13
organ@@ 13
fren@@ 13
beri@@ 13
studi@@ 13
schil@@ 13
tivi@@ 13
@ 13
klu@@ 13
pagne 13
bald 13
cke 13
alt@@ 13
safe@@ 13
sein 13
… 13
sch 13
medic@@ 13
where@@ 13
ellen 13
kli@@ 13
fei@@ 13
exac@@ 13
000 13
grad 13
chro@@ 13
egal 13
wick@@ 13
chen 13
him@@ 13
leb@@ 12
mus 12
í@@ 12
curity 12
# 12
stero@@ 12
phar@@ 12
ring@@ 12
ogen@@ 12
weapon@@ 12
astern 12
omen 12
gei@@ 12
betra@@ 12
kurz@@ 12
weil 12
dit 12
meister 12
heim 12
ek@@ 12
weib@@ 12
atem@@ 12
alg@@ 11
km 11
stom@@ 11
strom 11
rough@@ 11
schwi@@ 11
cken 11
autos 11
kro@@ 11
tol@@ 11
olog@@ 11
ó@@ 11
tier@@ 11
– 11
kla@@ 11
dn 11
dab@@ 11
bis 11
isla@@ 11
pro 10
dem 10
stige 10
hmen 10
mole@@ 10
stab@@ 10
mexic@@ 10
britan@@ 10
aden 10
fanta@@ 10
telev@@ 10
ok@@ 10
desig@@ 10
sili@@ 10
w. 10
dise@@ 10
dimension@@ 10
toll@@ 10
herr@@ 10
ffe@@ 10
terr@@ 10
ted-@@ 10
zeit@@ 9
geist 9
kinder 9
two@@ 9
kind@@ 9
mir 9
stark 9
normal@@ 9
stein@@ 9
rad@@ 9
è@@ 9
ender 9
norm@@ 9
intu@@ 9
zu 9
liche 9
eine 9
mei@@ 9
vier 9
fen@@ 9
spit@@ 9
ith 9
wur@@ 9
abili@@ 9
feld 9
mith@@ 9
fiel@@ 9
erer 9
ges@@ 9
spen@@ 9
meth@@ 9
ih@@ 9
wollen 9
stung 9
klei@@ 9
stern 9
lag 8
stud@@ 8
sche 8
instit@@ 8
kle@@ 8
kas 8
gs@@ 8
pf@@ 8
chir@@ 8
gni@@ 8
gren@@ 8
scha@@ 8
til 8
feu@@ 8
hoff@@ 8
rau@@ 8
brot 8
kus@@ 8
cept 8
chen@@ 8
diag@@ 8
( 8
nerv@@ 8
auge 8
paci@@ 8
gend@@ 8
stur@@ 8
sophi@@ 8
stens 8
tex 8
rem 8
privat@@ 8
your@@ 7
vices 7
atten 7
lle 7
masse 7
bie@@ 7
cht 7
hl 7
muster 7
beau@@ 7
geb@@ 7
percent@@ 7
oren 7
frei@@ 7
kel 7
sung 7
natu@@ 7
slow@@ 7
mutter@@ 7
funk@@ 7
buch@@ 7
schen 7
^ 7
ote 7
chter 7
gyp@@ 7
rad 7
tei@@ 7
best@@ 7
kun@@ 7
fen 7
job@@ 6
tig@@ 6
gem 6
wie@@ 6
tung 6
_ 6
cht@@ 6
spiel@@ 6
thom@@ 6
nach@@ 6
angi@@ 6
langu@@ 6
verti@@ 6
brau@@ 6
wen 6
ld 6
raid 6
u-@@ 6
malari@@ 6
schnei@@ 6
feel@@ 6
schul@@ 6
stif@@ 6
reich 6
stad@@ 6
uten 6
lager 6
dir 6
them@@ 6
den-@@ 6
zir@@ 6
pment 6
eren 6
haus@@ 6
lik@@ 6
kapu@@ 6
tod 6
face@@ 6
tice 6
eis@@ 6
gele@@ 6
protot@@ 5
famil@@ 5
í 5
ully 5
neur@@ 5
aber 5
steu@@ 5
trie@@ 5
mel 5
tau@@ 5
jes@@ 5
mme 5
zent@@ 5
video@@ 5
techn@@ 5
emo@@ 5
tem 5
ries@@ 5
health@@ 5
kleiner 5
nun 5
sich@@ 5
infi@@ 5
ffen 5
stead 5
industr@@ 5
isch 5
wand 5
degre@@ 5
samer 5
stab 5
inn 5
sinn@@ 5
mitten 5
rö@@ 5
ings@@ 5
solar@@ 5
kul@@ 5
ende 5
tete 5
kraft 5
cisco 5
n. 5
ehrlich 5
prei@@ 5
wagen 4
auff@@ 4
mobil@@ 4
kern@@ 4
econ@@ 4
ê@@ 4
disci@@ 4
ften 4
kung 4
omen@@ 4
kre@@ 4
minde@@ 4
kt@@ 4
ele 4
etz 4
ente 4
doch 4
ç@@ 4
ã@@ 4
insel 4
heu@@ 4
pite 4
blas@@ 4
tern 4
kom@@ 4
dass 4
att 4
ween 4
wein@@ 4
ernst 4
grie@@ 4
chines@@ 4
hast 4
acht 4
califor@@ 4
mund 4
baum@@ 4
viron@@ 4
fore 4
erin 4
koll@@ 4
angst 4
etes 4
orten 4
nen 4
อ@@ 4
asse 4
schizop@@ 3
ult 3
nein 3
tat 3
tun 3
schwei@@ 3
flei@@ 3
ske@@ 3
enz 3
gebra@@ 3
expon@@ 3
repar@@ 3
ñ@@ 3
goti@@ 3
teu@@ 3
hart 3
intelligen@@ 3
kop@@ 3
programme 3
gross@@ 3
toge@@ 3
nah@@ 3
strateg@@ 3
gegen@@ 3
happen@@ 3
det@@ 3
genug 3
fig 3
berg@@ 3
toile@@ 3
liqu@@ 3
mie 3
ö@@ 3
kunst@@ 3
brei@@ 3
absol@@ 3
ktor 3
det 3
ob 3
every@@ 3
lige 3
brenn@@ 3
kog@@ 3
aga@@ 3
klo@@ 3
erde 3
onie 3
eben 3
zig 3
uner@@ 3
spiegel 3
schle@@ 3
gabe 3
haus 3
auf 3
sep@@ 3
drin 3
wald 3
* 3
schi@@ 3
mend@@ 3
zop@@ 3
glau@@ 3
rami@@ 3
â 3
 3
 3
bein 3
internet@@ 3
yester@@ 3
mier@@ 3
klas@@ 3
tet 3
zit@@ 3
felder 3
fert 3
assen 3
stil 3
pf 3
ober@@ 3
lange 3
zog 3
fisch@@ 3
besser 3
ameri@@ 3
bs@@ 3
ien 3
opport@@ 3
zep@@ 3
hle 2
incredi@@ 2
scher 2
bele@@ 2
licht@@ 2
waff@@ 2
dorf 2
echt 2
relation@@ 2
blatt 2
zin 2
tsch@@ 2
schn@@ 2
eben@@ 2
kilome@@ 2
abend 2
ø@@ 2
nst 2
entre@@ 2
hinder@@ 2
einem 2
uss@@ 2
stern@@ 2
aum 2
alen 2
destru@@ 2
lern@@ 2
wie 2
gung 2
ā@@ 2
absolu@@ 2
fft 2
mein@@ 2
für 2
laut 2
prü@@ 2
wird 2
lich 2
sz@@ 2
dership 2
verk@@ 2
pä@@ 2
ä@@ 2
mitt@@ 2
dok@@ 2
reich@@ 2
eigen@@ 2
iger 2
rote 2
zei@@ 2
à 2
vog@@ 2
zt 2
bein@@ 2
complex@@ 2
atur 2
nen@@ 2
casi@@ 2
leiter 2
fs@@ 2
kran@@ 2
ü@@ 2
stag 2
possi@@ 2
essen 2
chti@@ 2
seine 2
micha@@ 2
immer 2
schlei@@ 2
vier@@ 2
ssen 2
alles 2
geld@@ 2
ganz 2
spie@@ 2
langer 2
wus@@ 2
ige 2
hier 2
eler@@ 2
herr 2
schmu@@ 2
holt 2
smit@@ 2
hin 2
halten@@ 2
roh@@ 2
ement@@ 2
ร 2
่ 2
merk@@ 2
trie 2
ost@@ 2
hinter@@ 2
lauf@@ 2
kus 2
quas@@ 2
chic@@ 1
kern 1
schaf@@ 1
online-@@ 1
internationale 1
krieg 1
ë@@ 1
kö@@ 1
rech@@ 1
kapital 1
deut@@ 1
sst 1
autor@@ 1
hren@@ 1
wege 1
fte 1
sei 1
diesel@@ 1
windo@@ 1
hosp@@ 1
ô@@ 1
² 1
das@@ 1
molecul@@ 1
zwe@@ 1
dopp@@ 1
von@@ 1
lö@@ 1
meet@@ 1
â@@ 1
ktu@@ 1
welle 1
schau@@ 1
kauf@@ 1
othe@@ 1
ï@@ 1
.000 1
nung 1
mals 1
frau 1
heim@@ 1
habe 1
kolle@@ 1
flori@@ 1
obvi@@ 1
maus 1
druck 1
weg@@ 1
zwei@@ 1
regen@@ 1
ische 1
eigent@@ 1
bern 1
gö@@ 1
hlen@@ 1
sweise 1
recht@@ 1
geschü@@ 1
tzt 1
welche 1
kunst 1
durch 1
spezi@@ 1
fisch 1
auf@@ 1
gerä@@ 1
regel@@ 1
mä@@ 1
keiten 1
allgemeinen 1
mensch@@ 1
neue 1
wirkungen 1
zielen 1
möglich 1
bei 1
freude 1
legen 1
zel@@ 1
rede 1
stie@@ 1
zell@@ 1
brasili@@ 1
charac@@ 1
blau 1
è 1
herz 1
zun@@ 1
lok@@ 1
kam 1
mut 1
morgen 1
schu@@ 1
movi@@ 1
.. 1
denly 1
ewi@@ 1
hie@@ 1
kenn@@ 1
ffee 1
wo 1
schluss 1
risi@@ 1
spiel 1
zur 1
rett@@ 1
rants 1
gem@@ 1
bras@@ 1
gott 1
debat@@ 1
ú@@ 1
lebe@@ 1
moral@@ 1
elles 1
ei 1
national@@ 1
regen 1
ertes 1
cen 1
verdi@@ 1
gab 1
mensch 1
ön@@ 1
€ 1
mein 1
kampf 1
mie@@ 1
送@@ 1
你@@ 1
葱 1
zelle 1
marki@@ 1
unities 1
mathe@@ 1
mehr@@ 1
schnell 1
gere@@ 1
llen 1
devel@@ 1
über@@ 1
wider@@ 1
geru@@ 1
gedanken 1
schl@@ 1
anz 1
tze 1
idee 1
lig 1
meine 1
ppen 1
kü@@ 1
childr@@ 1
tere 1
eln 1
schwe@@ 1
liches 1
ă@@ 1
ť 1
effi@@ 1
onen 1
feuer@@ 1
konz@@ 1
tsam 1
thema 1
manhat@@ 1
ē 1
ย@@ 1
ย 1
aku@@ 1
lichen 1
spru@@ 1
engl@@ 1
sä@@ 1
sohn 1
schen@@ 1
ingen 1
£ 1
wies@@ 1
zw@@ 1
baum 1
haft 1
minister@@ 1
viel@@ 1
haut 1
politik 1
\ 1
welt 1
sse 1
abli@@ 1
holz@@ 1
guten 1
trum 1
ć 1
tzen 1
madeupword0000 0
madeupword0001 0
madeupword0002 0
